function [Y,Xf,Af] = myNeuralNetworkFunction(X,~,~)
%MYNEURALNETWORKFUNCTION neural network simulation function.
%
% Auto-generated by MATLAB, 02-Nov-2021 16:48:28.
%
% [Y] = myNeuralNetworkFunction(X,~,~) takes these arguments:
%
%   X = 1xTS cell, 1 inputs over TS timesteps
%   Each X{1,ts} = 6xQ matrix, input #1 at timestep ts.
%
% and returns:
%   Y = 1xTS cell of 1 outputs over TS timesteps.
%   Each Y{1,ts} = 1xQ matrix, output #1 at timestep ts.
%
% where Q is number of samples (or series) and TS is the number of timesteps.

%#ok<*RPMT0>

% ===== NEURAL NETWORK CONSTANTS =====

% Input 1
x1_step1.xoffset = [8;3;68;46;70;1613];
x1_step1.gain = [0.119047619047619;0.4;0.00516795865633075;0.0108695652173913;0.166666666666667;0.000567054153671676];
x1_step1.ymin = -1;

% Layer 1
b1 = [-2.0554988553921753613;-1.7375809583718793139;1.0220927049003369902;-0.34254059290875110699;0.6993602173486500595;0.35130102980240196509;-0.4796325322456029272;-1.0032439611956214254;1.583992110066928527;-1.994355961723649262];
IW1_1 = [0.76246987927340603708 0.94478423749207540716 -0.61289741706599676352 -0.99256199706641512481 1.0140558095497087532 0.58182499951847244102;0.49000124963106239662 0.27598303098435195135 -0.66689533736222705862 -1.236075548057160356 -0.6658069031416867789 0.77706328804980306924;-0.52709563376723600481 -1.0339838232216194136 -0.76943234075490474222 0.065736789406647747058 1.1210350569234468487 1.0426901630866902693;0.48106305562881584992 -0.60374804417519345456 0.89578137885125408424 -1.5206835293801392872 -0.58919319516738166698 -0.65291555252918331842;-0.68689942814040128027 -0.037771423444863096164 -0.13708680063115546988 -0.51942560878294952165 -1.1816413834997439025 1.3546036243005352695;1.4861476721157875769 -0.66621683428369604663 0.92571537468135045579 -0.046542268697238500796 0.47290761026914807097 0.47768817678710101537;-1.0262561862511354605 0.19489272048895750489 -0.019850098364711413895 -0.80033301829789116333 -1.3305319521736374 -0.52624085917737162266;-0.9851948744517535772 1.2181999328930932514 -0.36169900435775065306 -1.1165631395052295627 0.19718102852780791667 -0.629944877294832839;1.0727485304756045892 -1.0183720795853188346 -0.91664070743322845214 -0.84807175067739148933 0.59083658166716979121 0.33510164495646072025;-0.94075104856914326668 1.2065217521107547416 0.14279049601412965864 -0.85053644922450133414 -1.0901911525660772373 0.37016338743824106494];

% Layer 2
b2 = 0.43279378973188969981;
LW2_1 = [0.26545831035572992063 0.40545262635673662288 0.27525521156496546293 0.37406883273775159982 -0.50038877382789892501 -0.45552219952473460562 -0.17046281830174672689 -0.014856192655233453268 -0.15073303195441403735 0.11718527962807646914];

% Output 1
y1_step1.ymin = -1;
y1_step1.gain = 0.0531914893617021;
y1_step1.xoffset = 9;

% ===== SIMULATION ========

% Format Input Arguments
isCellX = iscell(X);
if ~isCellX
    X = {X};
end

% Dimensions
TS = size(X,2); % timesteps
if ~isempty(X)
    Q = size(X{1},2); % samples/series
else
    Q = 0;
end

% Allocate Outputs
Y = cell(1,TS);

% Time loop
for ts=1:TS

    % Input 1
    Xp1 = mapminmax_apply(X{1,ts},x1_step1);

    % Layer 1
    a1 = tansig_apply(repmat(b1,1,Q) + IW1_1*Xp1);

    % Layer 2
    a2 = repmat(b2,1,Q) + LW2_1*a1;

    % Output 1
    Y{1,ts} = mapminmax_reverse(a2,y1_step1);
end

% Final Delay States
Xf = cell(1,0);
Af = cell(2,0);

% Format Output Arguments
if ~isCellX
    Y = cell2mat(Y);
end
end

% ===== MODULE FUNCTIONS ========

% Map Minimum and Maximum Input Processing Function
function y = mapminmax_apply(x,settings)
y = bsxfun(@minus,x,settings.xoffset);
y = bsxfun(@times,y,settings.gain);
y = bsxfun(@plus,y,settings.ymin);
end

% Sigmoid Symmetric Transfer Function
function a = tansig_apply(n,~)
a = 2 ./ (1 + exp(-2*n)) - 1;
end

% Map Minimum and Maximum Output Reverse-Processing Function
function x = mapminmax_reverse(y,settings)
x = bsxfun(@minus,y,settings.ymin);
x = bsxfun(@rdivide,x,settings.gain);
x = bsxfun(@plus,x,settings.xoffset);
end
